00
03
04
00
01
00
02
ff
fe
02
01
ff
00
00
01
01
01
02
01
02
03
ff
ff
ff
00
ff
fe
ff
01
00
ff
02
fe
01
02
01
03
00
00
ff
fd
02
01
00
00
fe
02
ff
fe
01
ff
ff
fe
fc
fc
00
01
fe
02
01
01
00
02
fe
00
ff
01
02
ff
02
ff
03
00
02
ff
01
02
ff
00
fe
fe
ff
02
fd
00
00
02
ff
00
01
02
01
fe
fd
fe
01
fe
ff
01
00
fe
00
00
ff
01
00
02
fe
02
fd
00
00
00
ff
02
fe
ff
00
06
fd
ff
ff
01
00
01
01
00
01
fe
00
00
fc
00
fd
03
ff
fd
fe
05
01
fc
fe
00
ff
00
ff
ff
01
fe
fe
00
00
00
fe
01
03
fd
fe
fe
fe
fe
02
ff
00
ff
fe
02
02
03
02
ff
ff
01
ff
02
00
01
fd
02
01
00
00
04
01
ff
fd
02
00
02
fd
fe
fd
04
03
fb
fe
06
01
00
ff
ff
ff
07
04
f8
fd
08
fe
ff
00
fe
03
04
06
f8
fd
0a
fe
fb
02
fd
fe
04
03
fd
01
0a
00
fd
fc
fa
fe
fb
00
fc
00
09
00
ff
03
00
fd
ff
fe
00
ff
09
fe
ff
ff
fc
ff
ff
fe
00
01
04
01
01
02
00
fe
01
00
00
fd
00
00
00
00
01
02
00
02
00
01
fe
01
01
01
01
00
02
ff
ff
ff
00
00
fe
00
00
00
00
00
01
ff
00
ff
ff
01
fe
00
03
03
03
fd
01
ff
01
02
fe
fe
04
05
ff
fb
00
ff
fc
fe
fd
fa
0b
0b
fe
fa
01
fd
ff
fb
ff
fd
10
0d
f8
fd
fe
f8
ff
fc
02
04
10
0a
f5
f9
fd
f3
09
f9
05
05
0b
06
f7
fa
fa
ee
09
f0
03
ff
0d
07
ff
03
06
f0
08
e9
01
02
02
ff
00
02
0c
f4
01
f1
ff
0a
fc
fa
04
04
0c
fa
00
fa
fc
06
f9
f7
08
09
09
fd
fd
fe
fe
fd
fd
01
02
03
ff
01
02
fc
02
01
fd
fd
ff
fe
fe
fe
00
00
00
ff
01
01
fe
02
ff
00
00
02
00
fd
01
03
01
ff
01
01
01
01
ff
fe
02
0c
02
fb
fd
03
fe
fb
fd
f9
08
09
03
fa
f8
08
fd
f5
fa
f5
09
08
00
04
fd
09
01
f7
01
f4
05
05
f7
05
f7
08
01
fe
04
fa
03
07
f0
01
f6
01
03
0c
08
f6
04
09
ec
ff
f5
fa
06
16
0c
f3
ff
05
f0
00
f4
ff
06
10
0a
fd
fe
04
f9
06
f6
fe
02
04
06
04
fc
00
01
06
f9
fe
02
f9
03
ff
fa
f8
10
10
f9
fb
05
f4
f8
fe
fb
fc
03
14
fe
ff
05
fc
01
02
03
00
ff
00
ff
00
fd
00
fe
03
02
fe
ff
ff
00
01
03
01
ff
02
04
01
ff
fe
fd
05
fe
ff
fe
fe
05
0b
fe
f5
fb
06
02
f8
fc
fa
05
03
00
ff
ff
0b
06
fa
ff
f5
02
ff
fd
08
fb
08
09
00
03
f3
09
fa
f8
0c
f8
0b
07
01
03
fe
05
fb
f5
02
f5
0a
02
07
07
06
06
0d
e2
f5
f5
12
f5
12
10
00
03
0b
f5
f7
ea
15
fb
07
0b
fb
02
08
fd
fe
e3
10
05
02
04
f6
00
0b
fd
06
ec
07
05
fe
09
f4
fb
fc
ff
16
f3
00
0a
f6
01
f8
fb
fb
fd
23
fa
fd
03
f9
00
00
02
01
ff
03
00
fe
01
ff
ff
03
03
01
01
01
ff
03
ff
fe
ff
ff
ff
03
00
00
fe
03
00
fc
fd
ff
fe
ff
fc
fe
ff
0b
05
00
ff
fb
f5
f5
fb
08
01
04
0d
0b
fe
f7
f0
eb
07
0a
01
02
10
0b
00
f5
ee
e9
0b
0e
00
04
0c
0f
03
03
e7
f9
ff
11
02
05
0c
fc
f5
21
f3
11
ee
00
f0
12
ff
fb
f7
05
fd
0b
0b
f4
e9
1b
f7
06
09
f4
fe
0c
fc
ef
f0
0f
02
08
08
f4
ff
06
f9
f1
f9
0d
08
0b
10
fa
fa
fa
f7
fe
fd
02
10
00
02
fd
fc
fe
fa
11
fe
fe
02
fc
01
fe
fe
00
00
01
00
00
00
ff
01
00
00
01
fe
01
03
00
01
01
00
ff
00
01
ff
00
00
05
ff
00
ff
ff
f7
fb
ff
00
ff
06
02
0e
09
fd
e2
f1
0e
09
07
01
02
0e
02
f5
e7
f4
10
06
06
00
02
0a
08
e9
ec
fd
1e
0f
09
f1
00
03
f9
01
ec
08
07
12
04
de
13
fd
e0
25
f1
09
fd
fa
f6
f8
0b
0e
e8
00
f4
07
11
ef
ff
0d
01
17
fb
f4
fe
01
04
f4
f9
07
00
16
01
fa
fd
f4
04
ec
04
03
09
12
13
fc
f8
fa
fd
e8
10
fe
05
03
05
fc
00
00
fd
f8
05
fd
03
fc
ff
04
02
ff
00
01
ff
ff
ff
00
01
ff
ff
ff
00
ff
ff
fe
02
00
00
fc
ff
01
00
01
00
03
ff
01
03
fe
fb
fc
08
ff
fe
01
fc
06
0d
fc
f8
f3
14
fb
07
fd
f7
06
0a
f5
01
f4
12
05
09
f5
f2
02
0c
e7
04
fa
11
0d
10
e7
ff
00
ee
0a
0a
07
02
04
03
de
13
fc
db
1c
02
04
06
f3
07
f7
0d
00
ed
f3
fc
ff
18
f2
00
09
00
14
fe
f2
fb
04
0e
fc
fb
14
f8
04
03
f6
fa
02
04
fd
06
0f
f2
fe
0f
fe
fc
fd
00
f8
10
05
f9
f5
07
ff
07
fe
fc
fb
01
01
ff
fc
01
01
01
01
02
ff
fd
01
fe
01
02
ff
00
00
02
ff
fc
01
00
00
00
01
04
00
ff
01
ff
00
ff
ff
06
00
09
06
ff
00
fa
01
fa
fe
0e
f5
0a
fa
0a
f9
08
f8
fa
fe
0e
f8
05
ef
0f
ef
0d
f5
07
04
08
f9
09
ee
ff
f2
18
ed
09
06
e6
10
10
f9
07
f1
05
f8
11
f8
e2
0e
05
f7
1a
f3
05
04
02
01
f9
eb
07
01
14
fd
fb
08
fe
09
02
f1
01
0a
05
02
05
09
f5
fc
05
fa
03
0b
ff
02
04
04
f6
f6
09
fd
08
09
fb
01
04
fe
f9
f4
00
fc
12
fe
fb
01
fe
02
fe
fc
ff
fe
01
02
fa
fd
ff
ff
ff
00
01
fe
00
fe
fe
00
02
00
03
01
fd
01
00
07
ff
ff
02
fd
00
ff
02
fd
10
0e
f8
06
f5
fc
f9
f8
0a
f5
0f
04
f7
11
ff
f0
04
f8
0c
f9
09
f8
f7
01
0b
ee
0c
f7
0c
fe
0f
ee
f3
fa
17
f2
0d
fa
f6
0b
0f
ea
ff
fc
0f
00
01
f4
f5
02
06
fc
0a
ff
03
00
fb
00
00
f6
06
0c
fd
00
0b
f6
fc
f8
00
fa
03
0c
f7
03
09
f7
fe
fc
03
fd
07
0e
f9
04
04
f3
ff
fb
02
00
12
07
f7
04
00
f9
00
f6
00
00
11
ff
fa
03
fd
ff
fc
fe
ff
00
02
01
00
fe
fe
00
02
ff
02
01
ff
00
fe
02
ff
fe
00
fe
fe
00
02
05
fd
ff
ff
00
00
00
01
fc
08
0e
fd
02
f8
fa
fd
fa
08
02
0d
0a
f2
08
f7
f4
0a
f5
09
04
0d
06
eb
0c
03
f5
02
ef
12
01
0b
fc
f0
09
12
f6
fd
eb
06
fb
02
f9
f2
03
18
fe
fa
f1
01
00
01
02
fa
00
17
fa
fb
f6
ff
05
03
09
fe
05
0d
f4
fa
f6
f9
03
0a
0b
fb
02
07
ed
00
f7
ff
fe
0b
08
fd
06
fe
f0
01
fe
fd
fd
11
ff
fe
0a
fc
f8
03
fd
00
00
04
00
fd
04
ff
fe
ff
ff
01
fd
00
00
ff
ff
02
fe
00
00
03
03
02
fe
03
fe
00
ff
02
02
01
fd
00
03
01
ff
00
01
fd
fe
01
04
02
08
fe
00
fe
01
f9
ff
04
0b
03
0a
f9
ff
f5
02
fc
f9
05
06
04
01
f9
05
f6
fe
02
fa
0f
f9
04
03
ff
06
f7
fb
07
fa
11
f2
fe
ff
fb
08
fd
f9
12
f8
09
ff
f8
ff
ff
05
fb
fe
0d
f5
fe
09
00
01
02
03
fb
f9
06
f3
f9
04
08
04
0a
02
f9
f4
05
f7
fc
00
09
fd
05
04
fb
f6
04
02
fe
ff
0b
ff
01
05
00
fa
00
03
fb
00
00
01
ff
02
01
ff
00
00
00
02
01
01
01
ff
01
00
03
00
04
01
00
ff
00
00
01
03
ff
ff
01
01
ff
01
fd
00
fe
ff
fe
fe
01
01
fc
07
00
fe
ff
02
fe
00
ff
fd
f8
09
fd
00
00
09
f7
03
fb
f8
f6
0f
fa
01
fd
0e
fb
06
fd
f4
f6
0d
fa
05
fa
0d
00
05
fc
f2
fb
0f
f5
0a
f8
0c
04
03
fb
f7
fd
07
f7
03
fa
0d
0a
01
fb
fd
fc
03
f7
01
fa
09
09
09
fc
02
fd
fe
fa
ff
00
fe
05
0b
fb
ff
fe
fe
ff
fe
fd
fb
02
0a
00
fe
00
fe
fe
03
01
fd
fe
06
fe
ff
04
ff
03
fe
03
ff
ff
02
00
02
ff
02
fd
01
fd
ff
00
fe
fe
00
ff
01
00
01
ff
01
ff
00
ff
fd
02
ff
01
fe
01
01
01
00
ff
01
00
01
ff
01
ff
02
ff
00
00
ff
fe
ff
fe
ff
03
00
00
00
ff
01
01
00
fd
00
ff
02
ff
04
fe
ff
01
fe
fc
02
00
02
fe
05
fe
ff
fd
00
fa
02
01
04
fe
06
ff
00
03
00
f7
01
00
08
fe
0a
01
00
fe
fe
fc
00
fe
08
00
03
00
02
ff
00
fb
fa
fe
02
01
01
ff
01
ff
ff
00
00
ff
00
ff
04
ff
00
00
02
ff
ff
00
01
fe
00
ff
00
00
01
01
00
02
01
01
01
fe
01
03
01
ff
01
ff
02
00
ff
