00
ff
ff
ff
00
ff
00
02
00
00
00
ff
00
01
00
01
01
ff
01
00
00
01
00
01
00
00
00
02
00
ff
00
ff
ff
00
01
01
01
01
00
ff
01
01
00
02
00
01
01
ff
00
00
01
ff
01
00
ff
00
01
00
ff
00
01
00
00
00
00
00
00
01
00
00
00
00
01
00
02
00
00
01
00
01
ff
01
00
01
01
00
00
00
ff
ff
00
00
00
00
ff
00
00
ff
00
ff
01
00
00
00
00
00
00
00
01
ff
02
00
00
ff
01
00
00
01
ff
00
ff
00
00
00
01
00
00
01
02
00
00
00
00
00
ff
00
00
ff
01
01
ff
ff
00
01
00
ff
ff
00
00
00
01
ff
00
ff
00
00
00
ff
fe
00
01
00
00
ff
01
ff
00
01
01
00
00
00
01
02
00
01
00
ff
ff
00
01
01
01
00
00
00
00
00
00
ff
01
01
00
00
02
01
01
00
00
00
00
00
00
00
ff
01
ff
00
ff
ff
00
00
00
00
01
ff
00
01
01
00
01
ff
00
01
ff
01
00
01
ff
00
ff
00
01
fe
01
01
ff
01
00
ff
00
01
00
00
00
01
00
ff
00
01
00
00
01
00
00
01
00
00
00
01
01
00
01
fe
ff
02
ff
ff
01
ff
01
01
ff
00
01
01
00
02
00
00
01
00
01
ff
ff
01
01
00
00
00
ff
01
00
01
01
00
01
00
00
ff
00
01
ff
00
01
00
00
01
01
00
00
00
01
ff
02
ff
00
01
00
01
01
00
00
00
01
01
ff
01
00
00
00
ff
00
00
ff
00
ff
ff
00
00
00
03
00
ff
ff
00
ff
ff
00
ff
ff
01
ff
00
fe
01
01
00
01
01
01
00
00
ff
00
01
ff
01
01
01
fe
ff
00
ff
00
01
00
01
ff
ff
00
01
01
01
fe
00
00
00
ff
00
01
00
ff
ff
ff
00
00
ff
00
00
00
01
ff
00
00
ff
02
00
ff
ff
00
ff
ff
00
ff
00
02
fe
01
ff
02
02
00
01
01
00
01
ff
ff
01
01
00
00
00
ff
00
01
00
ff
00
ff
ff
00
00
ff
00
00
01
01
02
00
01
ff
ff
00
ff
00
01
ff
00
00
00
00
00
01
01
ff
00
ff
00
01
00
01
00
00
00
02
01
01
00
ff
00
ff
00
00
01
01
ff
00
01
fe
fe
01
00
00
01
01
01
01
00
01
01
02
ff
ff
01
01
00
ff
00
ff
00
02
00
00
ff
01
01
00
01
00
01
01
fe
00
00
01
00
00
01
00
ff
ff
00
00
01
00
00
ff
01
ff
01
01
00
ff
00
00
ff
00
00
00
01
00
00
01
00
01
fe
00
01
00
01
01
00
ff
ff
ff
00
00
00
ff
00
fe
00
00
ff
01
01
ff
00
ff
00
00
00
00
01
ff
ff
00
00
00
01
ff
00
00
ff
00
00
ff
00
02
00
01
00
01
00
01
00
ff
ff
ff
01
ff
00
01
ff
ff
ff
01
00
01
00
00
00
ff
01
ff
fe
00
ff
01
01
01
00
fe
00
02
00
01
02
ff
01
00
ff
fe
00
02
00
00
00
ff
00
00
ff
ff
ff
02
ff
00
ff
ff
00
01
01
fe
00
04
00
00
ff
00
01
01
00
fe
00
03
fe
ff
00
00
ff
00
fe
fc
ff
04
ff
ff
00
ff
01
00
00
fd
00
04
fe
00
00
00
01
01
00
fd
fe
03
00
ff
ff
00
01
02
00
ff
00
04
00
fe
fe
ff
02
01
ff
fd
fd
03
00
01
ff
ff
00
00
ff
fe
01
03
fe
00
01
01
02
ff
fe
00
02
03
00
01
ff
ff
02
00
00
00
00
03
00
ff
00
ff
00
00
fe
ff
00
03
00
01
00
01
ff
01
ff
ff
00
02
00
ff
00
00
00
00
00
00
ff
01
02
ff
fe
ff
00
ff
ff
01
ff
01
01
00
00
ff
00
01
ff
01
00
fe
ff
ff
ff
00
01
00
00
01
01
ff
01
00
00
ff
00
01
ff
ff
ff
ff
01
02
ff
00
00
00
01
ff
01
00
01
ff
ff
00
ff
01
00
00
00
03
ff
02
00
00
ff
01
02
00
ff
00
ff
ff
ff
03
00
ff
ff
01
00
01
00
ff
00
01
ff
00
ff
ff
ff
ff
00
fe
ff
00
00
00
00
ff
00
00
01
01
00
fe
ff
ff
01
ff
01
01
00
02
01
ff
01
00
02
00
ff
01
00
ff
01
fe
01
01
01
ff
ff
01
00
ff
01
ff
ff
01
02
fe
00
02
ff
ff
ff
00
ff
03
01
fe
ff
02
00
ff
ff
ff
ff
05
00
fd
ff
04
00
fe
fe
ff
fc
04
01
fd
fe
05
ff
00
00
fe
ff
04
04
fb
ff
02
00
fe
ff
01
01
05
04
f9
fd
03
fe
ff
00
00
ff
04
04
fa
fe
03
fe
fd
fe
00
01
02
05
fa
00
03
ff
ff
fe
01
00
04
04
fc
00
01
fe
fd
ff
ff
ff
01
02
fd
01
02
01
ff
fe
ff
fe
01
04
fc
03
03
ff
ff
ff
fe
ff
fd
02
ff
01
04
ff
ff
ff
fe
01
fe
02
00
02
01
00
ff
ff
ff
fe
00
ff
01
02
03
00
00
fe
00
fe
ff
ff
ff
00
02
02
00
ff
ff
01
ff
ff
ff
01
03
ff
01
00
00
01
ff
ff
ff
ff
02
00
01
01
00
fe
01
ff
00
00
00
01
00
01
01
01
01
01
00
00
01
00
01
00
fe
ff
ff
00
01
fd
ff
fe
00
00
00
ff
01
00
00
ff
00
ff
01
02
00
00
00
00
00
00
ff
ff
00
ff
01
01
ff
00
00
01
01
ff
01
00
00
00
ff
ff
fe
ff
00
01
ff
ff
02
00
ff
00
ff
00
01
01
fe
01
ff
01
00
02
00
fe
fd
00
ff
01
00
00
01
03
ff
fe
00
ff
ff
01
ff
ff
01
03
00
fe
00
ff
fe
01
01
00
02
04
ff
fd
02
ff
01
ff
00
ff
04
05
fd
fc
01
ff
01
ff
01
ff
04
05
fb
fe
01
fd
00
fe
02
fe
05
07
fa
01
ff
fd
03
fe
ff
ff
05
05
fb
ff
ff
fe
03
fe
00
02
03
07
fb
fe
00
fd
03
fe
00
02
03
04
fb
ff
fe
fc
04
fb
00
01
02
05
fb
03
fe
fc
04
fb
ff
01
02
05
fd
02
01
fe
03
fb
01
ff
01
02
fe
02
01
fd
02
fd
fe
00
00
05
00
03
02
fe
02
fc
ff
02
00
02
00
03
02
ff
00
fc
fe
01
fd
01
03
fe
03
fe
02
fe
fe
01
fb
fd
03
03
04
01
00
fd
ff
01
fd
fe
03
02
03
01
ff
ff
00
ff
fe
fe
00
02
03
01
ff
ff
fd
ff
ff
00
02
03
01
01
00
ff
00
ff
01
00
00
01
ff
ff
01
01
01
00
01
01
00
00
00
01
00
00
01
00
ff
01
01
01
00
00
00
fe
00
01
01
00
00
00
00
00
00
00
01
00
02
01
ff
01
00
ff
01
ff
ff
00
01
01
00
00
ff
01
00
00
00
00
01
00
ff
00
ff
01
ff
00
ff
02
ff
03
01
ff
01
00
00
ff
fe
00
01
02
00
fe
ff
00
ff
ff
00
fe
01
05
01
fd
00
00
ff
ff
ff
ff
02
05
00
fd
ff
00
fe
ff
00
fe
03
03
ff
ff
01
00
ff
fe
00
fc
04
02
00
00
ff
ff
02
fd
01
fd
02
04
fe
02
01
ff
00
ff
01
fe
05
03
fd
02
fc
fd
02
01
ff
ff
03
02
fe
ff
fd
fd
04
01
03
01
04
02
fd
00
fc
fd
03
03
03
01
03
01
fe
fe
fe
fc
03
fd
02
02
02
02
fe
fe
fd
fa
02
ff
02
ff
05
04
00
00
fd
fb
03
fa
04
fe
04
ff
ff
03
ff
fa
04
fc
04
ff
02
01
00
02
01
f9
00
fa
02
01
00
00
01
00
03
fa
01
fd
00
01
00
ff
01
03
01
fc
03
fc
01
05
ff
fe
01
02
02
fc
01
fd
00
03
ff
fd
04
04
02
fe
ff
fd
fe
02
fd
fe
04
04
02
ff
fd
fe
fe
00
fd
fe
01
04
01
00
00
fe
ff
fe
00
00
00
04
00
00
01
ff
ff
00
01
01
00
00
00
01
01
01
fe
00
ff
00
01
01
00
01
ff
ff
ff
00
00
ff
00
00
01
01
ff
ff
00
00
00
00
00
ff
01
ff
00
fd
ff
00
ff
02
ff
01
ff
01
00
01
00
ff
00
02
01
fe
ff
02
00
00
fe
00
02
02
00
fd
00
00
ff
00
ff
fe
02
03
02
fd
ff
02
ff
ff
00
fe
02
05
02
fd
fe
03
fe
fd
02
ff
03
02
00
00
ff
03
ff
fd
ff
fc
02
03
01
00
ff
05
00
fd
fe
fb
02
04
ff
00
ff
01
ff
fe
00
fc
02
03
ff
ff
fb
03
fe
ff
00
ff
01
02
fd
01
fe
03
01
02
00
fd
01
01
fd
00
fe
02
02
02
02
fe
01
04
fb
ff
fd
00
02
04
03
fe
02
02
fb
02
fd
fe
01
05
02
fc
01
02
fb
ff
ff
01
04
03
02
fc
03
03
fb
ff
fd
00
02
04
03
fc
00
01
fc
ff
fe
01
03
04
04
ff
00
03
fc
02
fe
fd
fe
03
01
ff
fe
ff
ff
03
fd
ff
03
00
01
02
fe
00
00
02
fe
fd
02
ff
03
01
fe
00
00
00
ff
ff
ff
fd
04
01
fd
fd
06
03
00
00
00
fd
ff
01
fb
fe
05
06
01
fd
03
fb
fd
fd
fd
fd
02
07
01
fd
01
fe
fe
00
01
00
00
05
fe
00
03
ff
ff
00
ff
02
00
02
02
00
00
ff
00
00
00
00
ff
00
00
ff
00
00
00
00
00
00
ff
01
01
01
ff
01
01
ff
00
fe
01
ff
00
00
00
00
00
00
00
00
ff
fe
00
00
ff
01
01
fe
02
00
00
ff
ff
01
00
00
00
00
03
05
01
fa
01
01
ff
fe
00
ff
02
05
04
fd
ff
02
00
fb
ff
fd
03
03
01
00
fd
03
ff
fc
ff
fd
01
01
01
00
00
05
01
fc
fe
fb
02
01
00
04
ff
02
02
fe
00
fd
01
02
ff
01
fe
03
01
01
01
fc
ff
01
fe
02
fc
04
01
00
00
fc
01
00
fd
02
fe
03
ff
02
01
fe
00
02
fa
01
fd
04
ff
04
01
fe
02
01
fa
fe
fd
02
ff
08
02
fe
00
04
fa
02
fd
00
fc
08
01
fc
ff
03
fa
fe
fe
01
04
09
01
fc
00
01
fa
02
fc
03
01
08
03
fd
fc
02
fd
02
fc
04
fe
04
04
fc
fe
00
fd
00
fb
04
02
03
02
ff
fe
01
fe
01
f9
02
00
02
01
01
ff
02
fd
01
fe
03
00
02
01
00
00
fe
ff
02
fc
01
01
00
02
00
00
ff
03
02
fd
00
01
fc
03
fe
fa
fd
05
07
ff
00
04
fd
ff
fe
fb
fc
03
0a
01
ff
03
fe
fd
ff
fe
00
ff
08
fe
ff
02
fe
ff
00
01
01
00
03
00
ff
00
01
00
00
ff
00
00
00
00
00
00
00
01
01
00
00
01
ff
00
01
ff
01
01
00
01
00
00
ff
00
01
01
00
fe
00
00
01
00
00
00
01
01
ff
01
ff
01
00
01
00
00
03
00
fe
ff
ff
03
04
01
fa
00
02
00
fd
ff
00
03
05
01
fc
00
04
01
fc
ff
fd
01
02
01
fe
fe
04
02
ff
fe
fe
03
01
02
ff
fe
06
03
fc
00
fb
01
00
fe
02
ff
05
01
02
01
fa
01
ff
ff
02
ff
03
02
ff
02
fd
04
01
fd
02
fd
02
01
ff
00
fd
02
01
fe
03
fe
04
00
00
02
ff
01
02
fc
01
fd
05
03
fd
00
00
ff
01
fc
fe
fc
02
02
02
02
00
02
03
fb
ff
fb
03
ff
06
03
00
00
03
fa
fd
fa
05
ff
04
06
fe
00
01
fa
ff
fb
04
02
03
05
01
00
02
fd
ff
f9
04
00
01
03
fe
fd
03
fe
01
f7
05
02
02
01
ff
02
02
ff
01
f8
03
02
00
03
fd
01
02
ff
04
fb
03
01
ff
01
fd
00
00
ff
02
fb
00
02
02
03
fc
ff
02
ff
01
fa
02
02
fe
04
fd
fe
fc
02
08
fc
00
05
fe
01
fa
fc
fc
01
0e
fb
fe
07
fc
fd
fd
01
00
01
0b
fd
ff
02
00
ff
01
00
00
ff
02
ff
01
01
01
00
ff
00
ff
00
00
ff
01
01
00
00
00
ff
01
00
00
01
00
00
02
01
01
00
00
00
00
01
00
01
00
01
ff
00
00
00
00
00
01
02
00
01
01
01
03
fe
ff
fe
02
00
fe
ff
ff
02
05
00
fb
ff
05
00
fe
fe
fe
04
02
00
fd
fd
04
02
fd
00
fd
01
02
fe
ff
fe
02
02
02
fe
fd
00
02
ff
00
ff
01
02
01
ff
fc
fe
02
ff
01
ff
02
02
01
ff
fc
02
00
ff
01
fd
01
03
00
01
fe
02
fe
fe
02
fc
00
02
02
00
00
00
fb
ff
04
fe
01
01
00
ff
ff
01
fc
fe
03
fd
05
01
00
03
ff
01
fe
fd
ff
fb
02
01
01
02
04
03
04
f7
fc
fd
07
fc
03
00
06
03
06
fb
fb
fa
06
f9
04
03
02
02
05
ff
fa
f8
05
fe
00
04
ff
00
02
fe
fe
f6
06
00
ff
04
fe
02
02
00
fe
f7
05
ff
02
03
fd
ff
02
ff
fe
f8
04
01
00
01
fb
ff
05
00
01
fb
01
02
01
00
fc
fe
03
00
04
fb
04
03
ff
02
fb
ff
03
ff
04
fa
03
04
fe
06
fa
fe
fd
ff
09
fb
ff
05
fe
02
fd
fc
fb
fd
11
fd
fd
03
fb
fd
fe
fe
ff
ff
0d
fc
ff
00
00
ff
fe
00
01
ff
03
fe
00
02
ff
00
01
01
00
00
ff
01
01
ff
ff
00
00
ff
01
ff
00
01
01
ff
ff
00
01
ff
00
02
00
ff
ff
00
00
01
ff
ff
00
fe
01
ff
02
ff
ff
01
00
01
02
fd
fe
ff
04
00
ff
00
00
00
03
fe
fe
ff
06
02
fc
01
fe
02
00
ff
fe
ff
04
01
01
fe
fd
02
00
fd
ff
fe
01
02
02
00
fd
ff
ff
fe
04
01
02
04
01
ff
ff
ff
fb
ff
04
00
fe
03
02
00
fc
ff
fa
03
06
ff
01
04
02
ff
ff
ff
f9
00
05
ff
01
06
03
00
00
ff
f8
00
04
ff
ff
04
04
01
01
00
f9
03
05
fd
00
03
03
01
04
fc
01
fc
04
fe
03
00
fd
00
07
ff
02
f4
01
fc
05
00
00
fd
0b
fe
04
fe
ff
f9
08
fc
ff
ff
04
01
03
00
fc
fa
0a
fc
01
03
01
02
03
01
fa
f9
04
fd
01
03
fd
01
03
00
fb
f9
05
01
01
02
fb
ff
03
01
fc
f9
05
04
01
02
fc
00
05
fe
fd
fc
07
01
00
02
fb
ff
02
00
00
fc
06
02
ff
04
fc
00
01
fe
03
fb
02
03
00
06
fd
fe
ff
fb
08
fd
fe
04
ff
02
fc
fd
fc
fa
11
fc
ff
01
fd
fd
fe
ff
00
fd
10
fc
00
ff
fe
ff
ff
ff
ff
00
04
ff
01
01
00
00
00
ff
ff
00
00
00
ff
01
00
ff
00
ff
ff
ff
01
00
ff
00
01
00
00
00
00
02
ff
00
01
01
fe
00
01
00
01
ff
00
00
05
00
fe
ff
00
00
01
ff
fe
00
06
00
fd
fe
01
00
01
fc
ff
fe
06
01
ff
ff
ff
00
fe
fe
00
ff
01
04
04
00
fe
fc
fb
01
03
ff
01
03
04
00
fd
fb
fa
02
03
01
02
05
03
01
fc
fa
f8
02
03
02
00
05
06
ff
fd
f8
f9
06
02
02
02
05
04
ff
fe
f6
fa
06
03
01
02
03
04
01
fe
f7
fe
05
02
ff
03
02
05
00
00
f6
00
06
04
02
00
04
02
fe
04
f4
01
f9
07
02
01
06
00
fa
0b
f8
03
f5
01
fd
04
06
00
f8
0b
fa
03
02
fe
f9
07
00
03
f9
05
fe
00
05
fe
fa
07
fe
04
ff
ff
fc
04
03
fd
fb
07
fd
06
00
ff
ff
02
ff
fd
fc
08
fe
04
01
fd
02
02
ff
fa
fd
02
00
02
02
fd
ff
02
fd
f7
fe
04
01
07
03
fd
ff
00
fd
f8
00
03
01
05
02
fd
ff
fe
fd
f8
00
03
04
02
06
fd
fd
fe
fa
00
04
ff
06
00
05
fe
00
fe
fc
06
ff
fe
03
fd
ff
00
01
00
fe
08
fd
ff
01
fe
00
00
00
00
00
02
ff
00
01
00
01
00
00
ff
02
01
01
00
00
00
01
00
00
fe
00
02
01
ff
ff
01
01
00
ff
ff
ff
00
ff
00
01
00
02
ff
01
ff
ff
ff
00
03
01
fe
00
ff
fe
01
fe
ff
ff
05
00
fe
fe
ff
fd
ff
fd
ff
00
05
01
03
ff
fe
f9
fd
ff
01
01
02
04
06
02
00
f5
fa
02
04
03
00
03
06
01
ff
f4
fa
05
02
03
02
03
03
ff
ff
f8
fb
06
01
03
05
00
04
ff
fe
f8
fe
05
ff
03
01
03
05
00
fb
f8
01
07
04
01
00
ff
04
00
fa
f7
00
08
03
03
ff
00
02
01
00
f9
01
0b
05
04
f7
02
fd
ff
04
f9
02
fe
04
02
f7
06
00
f8
0c
fa
06
f9
00
fb
fe
04
05
f5
08
f9
02
03
ff
fb
04
00
03
f6
02
fb
02
05
fa
ff
07
00
05
fd
02
fc
01
00
fb
ff
05
01
06
ff
ff
fe
02
00
fc
fe
04
00
06
01
fd
00
00
01
fb
fb
00
02
06
ff
fb
ff
fe
01
f9
fe
01
03
05
03
fe
00
fa
02
f6
01
01
05
06
06
ff
fe
fb
01
f2
05
01
06
04
05
01
fc
fe
fe
f4
07
fe
06
02
06
00
01
00
ff
f8
03
ff
05
fe
00
00
00
00
ff
00
ff
00
02
ff
00
00
00
00
ff
01
fd
00
00
01
ff
ff
01
00
ff
00
ff
ff
00
01
00
ff
ff
01
ff
01
ff
ff
01
00
00
01
01
01
00
00
00
00
00
00
00
00
00
01
01
ff
fe
01
00
fe
01
01
00
00
fe
01
fe
04
00
ff
00
00
fa
fe
ff
01
ff
05
ff
05
01
00
f6
fc
03
01
00
02
01
05
04
ff
f4
fa
04
01
04
01
00
03
03
ff
f6
fb
06
03
02
02
00
03
03
ff
fa
fd
05
00
00
ff
00
03
01
fc
fc
fe
06
01
01
fe
ff
02
03
f9
fe
fe
07
03
03
ff
fe
02
01
f7
01
fe
0a
05
03
fb
01
ff
02
fd
ff
00
07
05
02
f2
04
fd
fa
06
01
05
fe
04
00
f2
07
00
f6
0a
ff
04
fe
ff
fe
fe
01
05
f4
06
fc
fe
04
fc
01
01
05
03
f7
03
fc
01
05
f9
00
04
02
07
fd
03
ff
01
05
fc
fd
02
fe
05
00
fc
fe
03
03
ff
fd
01
00
05
fe
fd
fe
fe
02
ff
00
00
01
07
ff
fd
ff
fb
05
fe
ff
02
02
05
00
fd
ff
fb
04
fc
02
01
00
05
03
00
ff
fa
02
fa
06
00
02
02
07
fe
ff
fe
00
f8
0a
00
02
fd
04
fd
04
00
fe
f9
04
ff
01
fc
01
00
04
00
00
ff
ff
01
01
00
00
01
04
01
ff
00
fd
ff
01
fe
00
00
00
01
00
01
00
00
00
00
01
ff
ff
00
00
ff
ff
ff
ff
01
00
ff
00
01
00
01
00
00
01
01
01
00
ff
ff
ff
00
ff
00
fe
fe
00
01
ff
00
ff
ff
ff
01
00
ff
ff
00
fd
fe
03
01
fd
01
fe
05
03
00
fa
fe
05
00
02
01
ff
02
02
00
fa
fa
05
00
02
00
fe
03
06
fe
00
fa
05
ff
01
ff
fb
02
02
ff
fe
fd
04
01
03
fe
fb
01
03
fd
ff
ff
04
03
05
fc
fd
00
02
f8
01
fe
04
05
04
fc
00
01
04
f8
00
fe
06
01
05
f7
05
ff
01
00
01
02
04
02
03
f4
03
ff
fc
06
04
02
fe
01
00
f7
06
00
f7
0a
01
02
ff
ff
ff
fd
04
01
f5
06
ff
01
02
fe
02
ff
02
03
f6
02
ff
00
05
fc
01
01
01
05
fe
fd
fd
01
07
fc
fd
04
00
05
ff
fb
00
00
04
fe
fe
06
00
03
fe
f9
00
ff
07
fd
00
07
ff
02
ff
fb
fe
fd
02
ff
00
05
fd
03
02
fd
ff
fe
02
fe
02
03
fd
02
03
ff
fe
fd
02
00
05
04
fb
ff
05
00
00
fd
ff
fc
06
03
fd
fb
07
01
04
fe
ff
fb
03
ff
fe
fc
02
00
06
00
ff
00
ff
02
ff
fe
ff
00
03
00
ff
00
ff
ff
00
ff
01
01
01
01
ff
01
ff
ff
01
00
01
ff
00
01
ff
01
00
00
00
01
ff
01
00
01
00
00
01
fe
00
00
01
ff
01
ff
00
01
00
01
00
fe
ff
00
00
02
00
ff
00
02
00
ff
00
00
02
ff
03
00
fc
00
ff
02
04
fe
01
ff
03
fd
00
fe
fc
02
02
fd
03
fd
04
fe
03
00
fc
01
04
ff
01
fc
05
fe
03
fd
fd
01
04
fe
01
fb
05
00
03
fb
fd
01
05
fc
01
fc
05
02
02
fc
ff
ff
04
fa
00
fe
04
04
05
fb
ff
01
01
fd
00
fe
05
00
05
f7
ff
01
fe
01
ff
01
03
02
03
f7
03
ff
f9
07
03
02
fe
00
02
fb
07
fe
f4
0a
02
03
01
fc
03
fc
06
fe
f5
03
01
02
05
fc
02
01
02
02
f8
02
ff
ff
08
fd
00
ff
ff
06
fc
f8
fe
fe
05
fc
fe
07
fd
04
00
f9
fe
fe
01
02
fe
07
ff
02
ff
fa
00
02
03
00
01
06
fe
01
03
fc
fd
03
ff
fe
02
06
fb
01
02
fe
fd
02
ff
00
02
05
fb
fe
02
fe
fd
02
01
fd
01
04
fc
fd
05
fe
ff
01
fe
01
03
01
fc
fa
03
fe
04
01
fc
00
02
ff
fd
fb
ff
00
07
00
fe
fe
ff
ff
00
00
00
ff
03
01
00
00
fe
ff
00
fe
fe
02
00
00
ff
ff
ff
02
00
ff
01
01
00
ff
00
ff
00
00
00
00
fe
ff
00
01
01
00
ff
01
ff
00
ff
00
ff
00
01
01
fe
00
01
00
fe
ff
02
01
ff
01
ff
00
00
01
02
00
03
04
ff
ff
fc
01
fe
01
05
00
04
01
00
fd
01
fe
fd
00
03
fd
04
fe
01
fd
04
00
fc
fe
03
fd
01
fc
04
f9
04
00
fe
ff
04
fd
fe
fa
05
fb
04
fe
02
02
04
fd
02
fe
04
fc
04
fd
01
fe
04
fe
02
fd
ff
fd
06
fa
01
01
01
fe
03
fe
00
ff
08
f6
00
00
fb
ff
04
01
00
00
01
fa
05
ff
f5
06
05
02
01
fe
00
fe
03
fc
f4
0a
02
00
04
fb
03
fc
02
fe
fa
01
00
fd
07
fe
01
01
01
01
fd
fd
02
fd
06
fb
ff
01
01
03
ff
f6
03
ff
05
fe
fd
05
00
03
00
f8
00
04
03
fe
01
03
fc
02
01
fa
00
04
02
00
02
04
fb
fe
01
fd
fe
02
03
01
00
04
fb
ff
03
fe
04
02
01
ff
00
04
fb
fc
02
fd
02
04
ff
02
01
02
fb
fc
02
fd
02
04
fe
01
00
00
ff
fb
01
00
08
03
fd
01
00
ff
fe
fb
00
ff
0a
fe
fd
ff
ff
fe
ff
ff
00
01
05
00
ff
fe
00
ff
00
00
00
00
02
01
02
ff
ff
01
01
00
01
01
00
ff
00
ff
01
02
ff
02
ff
ff
00
00
00
02
00
00
00
00
00
ff
00
00
00
00
00
02
01
ff
00
02
04
04
fe
00
00
00
00
fd
02
fe
05
04
fd
01
fc
01
fe
fe
03
fd
05
01
fe
02
fd
ff
fe
fd
03
fb
04
ff
00
04
00
fe
fe
fe
03
fb
02
ff
02
fe
04
fc
02
00
03
fc
01
fc
04
fb
04
fd
02
01
04
ff
03
f9
02
fb
05
fc
04
00
06
00
04
f8
fe
fb
08
f8
01
00
02
fe
04
f8
ff
fb
08
fd
04
00
fb
01
05
fb
00
f8
03
fe
05
00
f7
06
04
fd
04
fa
02
01
03
ff
f7
07
01
fb
07
fb
02
02
00
ff
fa
ff
02
fb
07
fe
ff
00
fe
04
ff
fa
00
01
05
01
ff
ff
01
01
01
f8
00
03
03
02
01
ff
ff
01
00
fb
01
02
03
03
02
01
fc
ff
01
fd
01
05
fe
01
02
01
fe
fe
02
fd
00
00
01
02
01
01
fd
fc
01
fe
03
03
00
01
00
ff
fe
fd
02
ff
01
04
fe
00
01
00
fe
fb
02
00
03
05
ff
02
01
ff
ff
fa
01
fe
09
00
fd
02
00
00
ff
fe
fe
ff
09
fe
ff
fd
ff
01
fe
ff
01
fe
01
ff
00
01
01
01
ff
ff
00
ff
02
00
00
fe
00
ff
00
00
00
00
01
00
ff
00
00
00
00
00
02
00
00
00
01
ff
00
01
00
00
02
01
ff
02
00
00
00
01
ff
00
fe
00
00
06
fe
01
fe
01
fe
fe
00
01
06
05
ff
02
fc
ff
fc
fe
01
fc
06
03
fd
03
fc
fe
fe
fd
03
fa
03
02
ff
08
01
fc
00
ff
02
fa
05
ff
00
03
01
fb
01
ff
04
fe
03
fe
02
00
04
fb
02
ff
03
fe
01
fc
01
fe
04
fc
04
00
05
fe
05
fa
fc
fd
04
fa
04
03
02
fe
02
fb
fe
ff
06
fd
04
01
fb
02
05
f9
03
fe
07
fe
04
fd
f8
03
04
fa
03
fe
03
00
00
fd
f9
03
02
fb
05
00
01
01
fe
03
fc
fd
00
02
02
ff
00
ff
00
01
ff
fa
01
04
03
00
03
fe
fe
ff
ff
fc
03
03
fe
02
04
ff
fc
ff
00
fe
01
02
fd
00
03
fe
ff
fd
00
ff
00
04
ff
01
02
fe
ff
ff
ff
00
01
01
ff
01
01
ff
00
01
02
ff
02
06
ff
01
02
fe
ff
fc
02
00
03
06
fb
03
ff
fd
00
fb
02
ff
06
00
fc
02
01
fc
01
fb
ff
ff
09
fe
fd
02
fe
fe
00
fe
fe
00
08
00
fe
ff
00
ff
ff
00
01
00
00
02
00
ff
00
01
00
ff
00
00
01
00
ff
fd
00
01
00
00
00
00
ff
00
00
ff
00
01
00
00
01
01
ff
ff
00
00
00
01
ff
ff
00
ff
ff
ff
00
00
02
01
00
ff
ff
01
00
06
fe
01
ff
ff
fe
ff
01
fe
04
05
ff
04
fc
fe
fd
fd
01
fa
03
07
00
04
fd
fc
00
fc
03
fb
03
02
fe
04
fe
f9
01
fc
03
fe
06
00
fe
03
00
f9
ff
fd
04
ff
04
01
fb
04
01
fa
01
fc
03
02
04
fe
fb
02
05
fc
03
fb
05
fe
05
fe
fa
01
05
fa
02
fd
05
fe
03
fc
fc
01
09
fc
ff
fb
02
fe
04
fc
fb
01
08
fe
00
fc
fd
02
05
fe
fe
02
04
fe
ff
fc
fc
00
03
ff
02
00
04
02
fd
fd
ff
00
03
01
01
01
04
fd
ff
fd
fe
02
02
02
ff
ff
03
fb
00
fd
00
00
03
04
fe
ff
02
fc
00
fc
ff
02
02
04
fe
01
01
fc
01
fe
fe
02
00
02
fc
01
00
fd
00
00
ff
01
01
02
fd
02
00
fc
00
01
01
ff
04
04
ff
01
02
fa
00
fd
02
ff
05
03
fa
00
01
f9
02
fc
00
ff
05
01
fc
04
01
fd
02
fd
00
00
05
fe
ff
02
00
ff
fe
fd
ff
00
05
00
fe
01
00
00
ff
00
00
00
01
01
01
fe
00
fe
fe
00
00
fe
01
01
ff
00
ff
ff
ff
ff
00
00
00
01
00
01
ff
00
00
00
02
ff
00
01
ff
01
00
00
00
01
01
ff
03
01
00
00
00
00
ff
ff
ff
00
01
05
00
01
ff
ff
ff
fd
00
fe
04
06
ff
02
fe
fd
fe
00
03
fc
05
05
fd
05
fc
fb
01
ff
03
01
03
04
fd
03
fd
fb
02
fe
01
ff
06
04
fa
01
01
fb
05
fd
02
02
04
03
f9
04
00
fb
00
fb
03
01
05
04
fa
04
03
fa
01
fa
05
03
03
ff
f9
00
05
fb
02
f8
07
02
05
fd
fe
03
05
fc
fe
f7
06
00
03
fb
fb
00
07
00
00
f7
03
00
01
fe
fc
01
04
00
01
fd
00
00
02
01
fe
ff
09
01
fe
fc
ff
00
01
ff
00
00
05
fe
01
fc
ff
03
02
02
00
01
02
fb
fd
ff
00
04
ff
02
00
03
02
fa
ff
fe
ff
05
02
04
ff
01
04
f8
00
fe
fe
02
03
02
fd
02
01
f9
00
fe
ff
02
03
05
fe
01
03
fa
02
fe
01
ff
04
02
00
02
ff
f8
01
fb
01
00
04
00
fc
05
ff
fb
03
fe
00
ff
05
01
fd
03
ff
fc
02
ff
fe
00
04
fe
fe
01
ff
ff
ff
00
02
01
03
00
fe
01
00
ff
ff
01
01
ff
01
01
ff
00
ff
01
01
00
00
01
01
01
00
ff
00
ff
00
00
01
ff
00
00
01
00
00
ff
00
fe
01
00
00
00
00
fe
ff
ff
fe
01
00
00
00
01
01
00
00
01
00
ff
00
ff
00
03
fe
00
fe
fe
fe
ff
fe
00
01
03
00
02
ff
fd
fd
ff
01
03
04
02
fe
01
fc
fd
ff
fe
02
04
03
04
fd
03
fb
fb
03
fe
02
03
03
03
fa
03
ff
fa
04
fc
01
02
01
01
fd
03
01
fe
01
fc
03
01
04
ff
fd
03
04
fc
02
fd
04
03
02
fe
fc
01
04
fc
ff
fc
05
ff
03
fe
fe
03
06
fe
ff
fb
03
fe
01
ff
fd
02
08
fe
fe
fa
02
fd
01
ff
fd
01
07
ff
01
fc
00
01
01
00
ff
02
08
fc
00
fb
00
01
fe
00
00
01
04
fe
ff
fc
00
01
02
02
fe
00
04
fe
ff
fd
fd
02
02
01
00
02
05
fb
01
fb
fd
05
04
03
fe
00
04
fb
ff
fb
fd
03
06
04
00
00
02
f9
ff
fc
ff
03
01
01
01
03
00
f9
01
fe
ff
01
04
00
00
04
00
fa
02
fd
ff
ff
04
00
00
06
ff
f9
01
00
fe
fd
07
fe
01
01
ff
fe
00
ff
ff
00
04
ff
fe
01
00
ff
fe
01
ff
00
02
00
00
00
01
00
00
ff
01
00
00
ff
ff
00
00
00
fe
02
ff
ff
ff
00
00
00
01
00
00
ff
00
00
ff
00
00
ff
00
00
fe
00
01
01
ff
02
00
01
00
01
00
00
ff
00
00
01
01
01
ff
00
01
00
ff
01
03
02
fe
ff
00
00
ff
ff
fe
00
02
02
ff
01
00
fe
fe
ff
ff
06
01
02
fe
ff
fd
ff
fe
fd
02
06
05
02
fd
ff
fc
ff
01
fe
02
03
03
00
fc
ff
fc
01
02
fd
01
01
04
fe
fd
01
fd
fe
00
fe
03
00
04
01
fc
01
ff
fd
ff
ff
02
ff
02
00
fe
00
02
fd
01
ff
02
fa
02
02
00
01
ff
fd
02
ff
03
fa
00
ff
fd
03
03
fe
02
01
04
fa
00
ff
ff
03
03
fb
02
fd
03
ff
ff
ff
fe
02
01
fe
03
00
02
00
fe
01
ff
01
03
fe
01
fc
01
01
00
00
00
02
02
fe
ff
fd
00
04
00
01
00
00
01
fe
00
fe
fe
03
03
01
00
03
ff
fa
01
fb
ff
02
02
02
03
02
00
fc
ff
fb
fe
01
04
02
02
02
ff
fb
00
fd
fe
ff
04
fe
02
02
ff
fa
01
ff
00
fe
04
00
01
02
fe
fc
00
01
ff
ff
03
00
fe
03
00
fe
ff
01
ff
00
02
00
00
02
fe
ff
ff
01
00
01
02
01
ff
00
00
ff
ff
00
ff
01
00
00
00
01
01
ff
00
01
ff
fe
00
00
00
01
ff
ff
fe
ff
00
ff
00
ff
00
00
00
01
00
01
00
01
00
00
01
ff
00
ff
ff
00
fe
ff
02
01
01
00
00
00
00
02
ff
00
00
03
01
ff
01
fe
00
ff
fd
02
ff
04
00
03
ff
ff
ff
fd
fe
04
ff
03
fd
01
ff
02
fb
fe
fe
03
00
04
00
ff
fe
01
fb
fd
00
02
00
04
fe
ff
fd
03
fd
fd
02
ff
02
ff
00
01
fb
fe
01
01
04
00
01
02
ff
02
fc
fe
01
fc
04
ff
00
02
00
03
fa
fe
00
ff
06
fe
02
02
00
02
fc
fd
02
fe
05
ff
00
fe
fe
02
fd
fc
03
fe
05
fe
00
01
fe
ff
ff
fd
06
ff
03
fd
ff
fe
ff
01
ff
ff
03
ff
02
01
ff
ff
ff
00
ff
00
04
fd
01
02
ff
fe
02
03
fe
ff
05
fe
ff
03
00
01
02
00
fd
fd
01
fd
fd
01
04
05
03
fe
00
fd
02
fe
fc
01
04
00
01
fe
00
fa
02
fe
fc
ff
05
00
04
01
ff
fa
02
01
ff
fe
04
fd
03
00
00
fc
01
03
ff
ff
05
ff
00
03
fd
fc
01
04
00
00
03
00
fe
02
ff
fd
ff
04
00
00
01
ff
ff
02
ff
00
01
ff
00
ff
02
00
00
00
00
00
ff
ff
00
ff
00
00
ff
02
ff
ff
00
01
01
00
01
00
00
00
00
ff
00
ff
00
00
00
fe
01
00
01
00
fe
00
00
00
00
00
00
00
00
01
00
ff
00
ff
01
00
ff
ff
00
00
ff
03
ff
fe
ff
02
00
ff
00
00
ff
01
00
00
ff
04
00
00
01
02
fc
ff
00
00
fd
04
00
ff
ff
04
fc
00
ff
00
fc
06
ff
00
00
05
fb
01
fd
ff
fd
06
ff
01
00
05
fc
01
00
fc
fe
06
ff
01
fe
03
02
01
ff
fd
fe
03
00
04
fd
01
01
fe
00
fc
fc
05
00
03
fc
02
01
02
ff
fb
ff
05
02
03
fb
01
04
ff
02
fc
ff
04
fe
04
fc
01
03
fe
01
fb
00
05
ff
04
fb
02
03
fc
03
fb
02
04
fe
04
fb
00
02
fc
ff
fb
00
02
ff
03
fb
01
04
ff
fe
fb
fe
03
ff
03
fe
ff
06
00
fd
00
03
01
ff
01
ff
01
01
02
fd
ff
01
ff
00
03
fe
ff
03
01
fe
02
02
ff
01
02
fe
fe
05
00
fe
fe
01
00
02
01
fe
fc
02
06
fe
00
00
ff
00
00
ff
fd
ff
06
fe
ff
00
ff
00
01
00
fd
01
03
00
00
02
00
00
01
01
ff
ff
01
00
ff
02
01
fe
01
ff
ff
ff
01
ff
00
01
00
fd
00
ff
00
01
ff
01
00
ff
ff
ff
01
ff
00
ff
00
01
00
00
00
01
00
00
00
ff
01
ff
01
00
01
01
01
00
00
00
ff
ff
ff
ff
02
00
00
ff
00
ff
01
00
ff
02
01
00
ff
00
02
00
00
ff
01
01
01
01
01
00
00
01
ff
01
fe
00
00
00
01
00
01
ff
01
01
01
ff
00
00
fe
01
01
fe
01
fe
00
00
02
fe
01
01
02
ff
02
ff
fe
ff
06
fd
ff
00
03
ff
04
fe
fe
fc
07
fe
ff
fe
05
fc
05
fc
fe
fc
07
fb
03
00
05
fd
02
fc
fb
fd
08
fd
02
00
03
00
03
fc
fb
fc
08
fb
03
00
06
ff
02
fc
fd
fe
08
fa
03
00
04
ff
03
fd
fc
fd
07
fc
04
fe
04
ff
03
fc
fd
ff
04
fc
02
ff
04
01
04
fc
fc
ff
02
fd
05
ff
03
04
02
fd
fd
00
03
fa
02
ff
03
01
03
fd
fd
ff
00
fa
03
fe
02
03
04
fc
ff
fd
00
fa
02
00
01
02
04
fe
ff
fe
01
fc
00
00
01
00
06
fe
00
fe
01
fe
ff
ff
ff
00
07
fe
01
00
fe
fe
01
ff
00
01
04
fe
02
00
00
00
01
00
ff
00
02
01
ff
ff
00
00
01
00
00
00
01
00
ff
00
ff
fe
02
01
ff
ff
01
ff
00
00
00
02
ff
ff
ff
ff
00
01
00
ff
01
ff
ff
ff
00
00
01
00
00
00
00
01
00
fe
ff
00
ff
ff
ff
00
00
00
00
01
00
01
00
01
01
ff
ff
ff
00
00
01
01
00
00
00
00
00
00
ff
ff
ff
ff
ff
00
00
01
00
01
01
ff
01
01
00
ff
fe
fe
00
01
02
00
fe
01
00
00
ff
01
00
00
00
ff
01
ff
00
ff
00
00
01
00
01
00
00
00
02
00
00
ff
00
00
fe
01
01
00
03
00
00
00
00
fe
ff
00
00
00
02
00
ff
00
ff
fd
ff
01
02
00
04
ff
ff
00
01
fd
ff
ff
02
01
03
ff
ff
00
00
fd
02
01
03
fe
05
fe
00
ff
ff
fc
01
00
01
ff
06
00
ff
00
ff
fa
ff
ff
04
ff
06
fd
00
00
00
fa
ff
ff
04
fd
07
fe
ff
00
ff
fb
01
ff
04
ff
05
ff
ff
ff
00
fb
00
ff
05
fe
04
00
00
fd
00
fa
ff
ff
03
00
03
00
00
ff
ff
fd
ff
ff
04
ff
03
00
00
00
03
fd
fe
01
01
ff
03
00
ff
00
01
ff
02
ff
02
ff
02
00
ff
00
ff
fe
01
ff
00
ff
02
00
fe
ff
01
00
00
00
00
02
01
00
01
fe
00
01
00
00
ff
fe
ff
01
ff
00
01
ff
00
00
00
ff
02
00
01
00
00
00
00
00
00
01
01
00
ff
01
ff
00
ff
01
ff
01
01
00
00
ff
02
01
00
01
01
ff
01
00
00
ff
ff
00
00
00
fe
ff
00
00
ff
ff
00
00
00
01
00
00
ff
00
00
ff
01
ff
ff
00
01
ff
ff
01
ff
01
02
00
00
01
01
01
01
00
ff
01
02
01
00
ff
01
00
00
00
01
01
00
ff
00
01
ff
ff
00
02
ff
01
ff
01
00
ff
ff
ff
00
ff
02
ff
00
ff
01
00
00
00
01
01
00
01
ff
00
ff
01
01
00
01
ff
ff
ff
00
ff
00
00
ff
00
00
ff
00
ff
00
00
01
00
fe
fe
01
02
00
00
00
ff
00
01
00
ff
ff
ff
00
01
00
00
fe
ff
00
01
ff
ff
ff
00
ff
00
ff
00
01
00
fe
00
ff
02
ff
fe
00
ff
01
00
00
00
00
01
ff
00
00
00
00
01
00
01
ff
01
00
00
01
00
02
01
00
00
ff
00
00
01
fe
00
02
ff
fe
01
00
01
ff
01
ff
ff
00
00
01
00
00
ff
00
ff
ff
00
00
ff
00
00
fe
01
00
00
ff
ff
00
00
01
00
ff
ff
ff
00
01
ff
02
01
00
00
00
ff
01
01
ff
00
01
00
02
00
ff
00
00
01
00
ff
00
01
01
00
ff
ff
00
00
00
01
01
00
01
ff
00
00
ff
00
00
00
fe
01
01
fe
ff
ff
01
00
00
01
00
01
01
ff
01
00
00
00
01
00
00
00
fe
